/* Copyright 2019 The TensorFlow Authors. All Rights Reserved.

Licensed under the Apache License, Version 2.0 (the "License");
you may not use this file except in compliance with the License.
You may obtain a copy of the License at

    http://www.apache.org/licenses/LICENSE-2.0

Unless required by applicable law or agreed to in writing, software
distributed under the License is distributed on an "AS IS" BASIS,
WITHOUT WARRANTIES OR CONDITIONS OF ANY KIND, either express or implied.
See the License for the specific language governing permissions and
limitations under the License.
==============================================================================*/

// Automatically created from a TensorFlow Lite flatbuffer using a command like:
// xxd -i person_detect.tflite > person_detect_model_data.cc

#include "mata_model_data.h"

// We need to keep the data array aligned on some architectures.
#ifdef __has_attribute
#define HAVE_ATTRIBUTE(x) __has_attribute(x)
#else
#define HAVE_ATTRIBUTE(x) 0
#endif
#if HAVE_ATTRIBUTE(aligned) || (defined(__GNUC__) && !defined(__clang__))
#define DATA_ALIGN_ATTRIBUTE __attribute__((aligned(4)))
#else
#define DATA_ALIGN_ATTRIBUTE
#endif

const unsigned char g_mata_model_data[] DATA_ALIGN_ATTRIBUTE = {
//    0x1C, 0x00, 0x00, 0x00, 0x54, 0x46, 0x4C, 0x33, 0x00, 0x00, 0x12, 0x00, 0x1C, 0x00, 0x04, 0x00, 
//    0x08, 0x00, 0x0C, 0x00, 0x10, 0x00, 0x14, 0x00, 0x00, 0x00, 0x18, 0x00, 0x12, 0x00, 0x00, 0x00, 
//    0x03, 0x00, 0x00, 0x00, 0x14, 0x00, 0x00, 0x00, 0x1C, 0x00, 0x00, 0x00, 0x9C, 0x00, 0x00, 0x00, 
//    0x1C, 0x00, 0x00, 0x00, 0x44, 0x00, 0x00, 0x00, 0x02, 0x00, 0x00, 0x00, 0x74, 0x02, 0x00, 0x00, 
//    0x50, 0x01, 0x00, 0x00, 0x01, 0x00, 0x00, 0x00, 0xA4, 0x00, 0x00, 0x00, 0x0A, 0x00, 0x00, 0x00, 
//    0xA8, 0x06, 0x00, 0x00, 0xA4, 0x06, 0x00, 0x00, 0x90, 0x05, 0x00, 0x00, 0x10, 0x05, 0x00, 0x00, 
//    0xC0, 0x03, 0x00, 0x00, 0xAC, 0x02, 0x00, 0x00, 0x90, 0x06, 0x00, 0x00, 0x8C, 0x06, 0x00, 0x00, 
//    0x88, 0x06, 0x00, 0x00, 0x38, 0x00, 0x00, 0x00, 0x01, 0x00, 0x00, 0x00, 0x0C, 0x00, 0x00, 0x00, 
//    0x08, 0x00, 0x0C, 0x00, 0x04, 0x00, 0x08, 0x00, 0x08, 0x00, 0x00, 0x00, 0x08, 0x00, 0x00, 0x00, 
//    0x09, 0x00, 0x00, 0x00, 0x13, 0x00, 0x00, 0x00, 0x6D, 0x69, 0x6E, 0x5F, 0x72, 0x75, 0x6E, 0x74, 
//    0x69, 0x6D, 0x65, 0x5F, 0x76, 0x65, 0x72, 0x73, 0x69, 0x6F, 0x6E, 0x00, 0xCA, 0xFA, 0xFF, 0xFF, 
//    0x04, 0x00, 0x00, 0x00, 0x10, 0x00, 0x00, 0x00, 0x31, 0x2E, 0x35, 0x2E, 0x30, 0x00, 0x00, 0x00, 
//    0x00, 0x00, 0x00, 0x00, 0x00, 0x00, 0x00, 0x00, 0x0F, 0x00, 0x00, 0x00, 0x4D, 0x4C, 0x49, 0x52, 
//    0x20, 0x43, 0x6F, 0x6E, 0x76, 0x65, 0x72, 0x74, 0x65, 0x64, 0x2E, 0x00, 0x00, 0x00, 0x0E, 0x00, 
//    0x18, 0x00, 0x04, 0x00, 0x08, 0x00, 0x0C, 0x00, 0x10, 0x00, 0x14, 0x00, 0x0E, 0x00, 0x00, 0x00, 
//    0x14, 0x00, 0x00, 0x00, 0x34, 0x00, 0x00, 0x00, 0x38, 0x00, 0x00, 0x00, 0x3C, 0x00, 0x00, 0x00, 
//    0x48, 0x00, 0x00, 0x00, 0x08, 0x00, 0x00, 0x00, 0xA8, 0x05, 0x00, 0x00, 0x38, 0x05, 0x00, 0x00, 
//    0x74, 0x04, 0x00, 0x00, 0x18, 0x04, 0x00, 0x00, 0xC4, 0x02, 0x00, 0x00, 0xA0, 0x01, 0x00, 0x00, 
//    0xF0, 0x00, 0x00, 0x00, 0x78, 0x00, 0x00, 0x00, 0x01, 0x00, 0x00, 0x00, 0x00, 0x00, 0x00, 0x00, 
//    0x01, 0x00, 0x00, 0x00, 0x07, 0x00, 0x00, 0x00, 0x03, 0x00, 0x00, 0x00, 0x38, 0x01, 0x00, 0x00, 
//    0xA0, 0x00, 0x00, 0x00, 0x1C, 0x00, 0x00, 0x00, 0x04, 0x00, 0x00, 0x00, 0x6D, 0x61, 0x69, 0x6E, 
//    0x00, 0x00, 0x0E, 0x00, 0x18, 0x00, 0x08, 0x00, 0x0C, 0x00, 0x10, 0x00, 0x07, 0x00, 0x14, 0x00, 
//    0x0E, 0x00, 0x00, 0x00, 0x00, 0x00, 0x00, 0x09, 0x01, 0x00, 0x00, 0x00, 0x1C, 0x00, 0x00, 0x00, 
//    0x10, 0x00, 0x00, 0x00, 0x04, 0x00, 0x00, 0x00, 0x96, 0xFB, 0xFF, 0xFF, 0x00, 0x00, 0x80, 0x3F, 
//    0x01, 0x00, 0x00, 0x00, 0x07, 0x00, 0x00, 0x00, 0x01, 0x00, 0x00, 0x00, 0x06, 0x00, 0x00, 0x00, 
//    0xEA, 0xFE, 0xFF, 0xFF, 0x00, 0x00, 0x00, 0x19, 0x01, 0x00, 0x00, 0x00, 0x00, 0xFB, 0xFF, 0xFF, 
//    0x14, 0x00, 0x00, 0x00, 0x08, 0x00, 0x00, 0x00, 0x18, 0x00, 0x00, 0x00, 0x30, 0x00, 0x00, 0x00, 
//    0x20, 0x00, 0x00, 0x00, 0x02, 0x00, 0x00, 0x00, 0x01, 0x00, 0x00, 0x00, 0x03, 0x00, 0x00, 0x00, 
//    0x08, 0x00, 0x00, 0x00, 0x49, 0x64, 0x65, 0x6E, 0x74, 0x69, 0x74, 0x79, 0x00, 0x00, 0x00, 0x00, 
//    0x02, 0x00, 0x00, 0x00, 0xFF, 0xFF, 0xFF, 0xFF, 0x03, 0x00, 0x00, 0x00, 0xE8, 0xFA, 0xFF, 0xFF, 
//    0x7A, 0xFF, 0xFF, 0xFF, 0x00, 0x00, 0x00, 0x08, 0x18, 0x00, 0x00, 0x00, 0x0C, 0x00, 0x00, 0x00, 
//    0x04, 0x00, 0x00, 0x00, 0x00, 0xFB, 0xFF, 0xFF, 0x01, 0x00, 0x00, 0x00, 0x06, 0x00, 0x00, 0x00, 
//    0x03, 0x00, 0x00, 0x00, 0x05, 0x00, 0x00, 0x00, 0x04, 0x00, 0x00, 0x00, 0x02, 0x00, 0x00, 0x00, 
//    0x74, 0xFB, 0xFF, 0xFF, 0x14, 0x00, 0x00, 0x00, 0x07, 0x00, 0x00, 0x00, 0x18, 0x00, 0x00, 0x00, 
//    0x40, 0x00, 0x00, 0x00, 0x30, 0x00, 0x00, 0x00, 0x02, 0x00, 0x00, 0x00, 0x01, 0x00, 0x00, 0x00, 
//    0x03, 0x00, 0x00, 0x00, 0x1A, 0x00, 0x00, 0x00, 0x73, 0x65, 0x71, 0x75, 0x65, 0x6E, 0x74, 0x69, 
//    0x61, 0x6C, 0x2F, 0x64, 0x65, 0x6E, 0x73, 0x65, 0x5F, 0x31, 0x2F, 0x42, 0x69, 0x61, 0x73, 0x41, 
//    0x64, 0x64, 0x00, 0x00, 0x02, 0x00, 0x00, 0x00, 0xFF, 0xFF, 0xFF, 0xFF, 0x03, 0x00, 0x00, 0x00, 
//    0x88, 0xFC, 0xFF, 0xFF, 0x00, 0x00, 0x0E, 0x00, 0x14, 0x00, 0x00, 0x00, 0x08, 0x00, 0x0C, 0x00, 
//    0x07, 0x00, 0x10, 0x00, 0x0E, 0x00, 0x00, 0x00, 0x00, 0x00, 0x00, 0x08, 0x18, 0x00, 0x00, 0x00, 
//    0x0C, 0x00, 0x00, 0x00, 0x04, 0x00, 0x00, 0x00, 0x94, 0xFB, 0xFF, 0xFF, 0x01, 0x00, 0x00, 0x00, 
//    0x05, 0x00, 0x00, 0x00, 0x03, 0x00, 0x00, 0x00, 0x00, 0x00, 0x00, 0x00, 0x03, 0x00, 0x00, 0x00, 
//    0x01, 0x00, 0x00, 0x00, 0x00, 0x00, 0x0A, 0x00, 0x0C, 0x00, 0x07, 0x00, 0x00, 0x00, 0x08, 0x00, 
//    0x0A, 0x00, 0x00, 0x00, 0x00, 0x00, 0x00, 0x09, 0x01, 0x00, 0x00, 0x00, 0x20, 0xFC, 0xFF, 0xFF, 
//    0x14, 0x00, 0x00, 0x00, 0x06, 0x00, 0x00, 0x00, 0x18, 0x00, 0x00, 0x00, 0x40, 0x00, 0x00, 0x00, 
//    0x30, 0x00, 0x00, 0x00, 0x02, 0x00, 0x00, 0x00, 0x01, 0x00, 0x00, 0x00, 0x10, 0x00, 0x00, 0x00, 
//    0x18, 0x00, 0x00, 0x00, 0x73, 0x65, 0x71, 0x75, 0x65, 0x6E, 0x74, 0x69, 0x61, 0x6C, 0x2F, 0x64, 
//    0x65, 0x6E, 0x73, 0x65, 0x2F, 0x42, 0x69, 0x61, 0x73, 0x41, 0x64, 0x64, 0x00, 0x00, 0x00, 0x00, 
//    0x02, 0x00, 0x00, 0x00, 0xFF, 0xFF, 0xFF, 0xFF, 0x10, 0x00, 0x00, 0x00, 0x18, 0xFC, 0xFF, 0xFF, 
//    0x2E, 0xFD, 0xFF, 0xFF, 0x04, 0x00, 0x00, 0x00, 0xC0, 0x00, 0x00, 0x00, 0x2D, 0x92, 0xB9, 0x3E, 
//    0xA0, 0x1E, 0x0A, 0x3F, 0xB3, 0x0B, 0x8B, 0xBC, 0x70, 0x21, 0x34, 0xBF, 0x4D, 0x14, 0x30, 0xBE, 
//    0x0C, 0x2F, 0x24, 0xBF, 0xAF, 0x1F, 0x13, 0x3E, 0xB3, 0xD8, 0x82, 0xBF, 0xBE, 0x2E, 0x21, 0x3F, 
//    0x80, 0xA0, 0x66, 0x3F, 0x68, 0xFE, 0x52, 0x3E, 0xE6, 0xE7, 0xC0, 0x3D, 0xB7, 0xCA, 0x82, 0x3C, 
//    0x21, 0x44, 0x1B, 0x3D, 0x72, 0x96, 0xCD, 0x3E, 0x4E, 0xDE, 0xB7, 0x3E, 0x07, 0x92, 0xEA, 0xBD, 
//    0x24, 0x6D, 0xE5, 0x3E, 0xA6, 0xDB, 0xC0, 0xBD, 0x56, 0x5D, 0x06, 0x3E, 0xA9, 0x2B, 0x30, 0xBF, 
//    0x9F, 0x41, 0x71, 0xBE, 0x0A, 0x61, 0x6C, 0xBE, 0xDC, 0x95, 0xD1, 0xBC, 0xC0, 0x1C, 0xEA, 0xBB, 
//    0x02, 0xD5, 0x76, 0xBE, 0xF4, 0x6D, 0xF8, 0x3C, 0xEA, 0x37, 0xEF, 0x3E, 0x6C, 0x2E, 0x05, 0x3F, 
//    0x1B, 0x25, 0x3A, 0xBE, 0x8F, 0x6B, 0xDE, 0xBD, 0x8C, 0x71, 0xAD, 0x3E, 0xBB, 0xAE, 0x93, 0xBD, 
//    0x93, 0xEB, 0x3D, 0x3E, 0x03, 0x3C, 0x33, 0x3F, 0x91, 0xE0, 0x4E, 0xBE, 0x6E, 0x10, 0x3C, 0xBC, 
//    0x73, 0xB0, 0xBE, 0x3E, 0x72, 0x8B, 0x33, 0xBF, 0xDA, 0x27, 0x9A, 0x3F, 0xB8, 0x8B, 0x18, 0xBF, 
//    0xF0, 0xC3, 0x7E, 0xBF, 0xA4, 0x22, 0x10, 0x3F, 0x0B, 0xD8, 0xA9, 0x3D, 0x03, 0x0F, 0x49, 0xBF, 
//    0x1B, 0x83, 0x68, 0xBE, 0xB1, 0xEB, 0x8A, 0xBF, 0xDE, 0xF5, 0x83, 0xBF, 0xA6, 0xFD, 0xFF, 0xFF, 
//    0x10, 0x00, 0x00, 0x00, 0x05, 0x00, 0x00, 0x00, 0x14, 0x00, 0x00, 0x00, 0x30, 0x00, 0x00, 0x00, 
//    0x02, 0x00, 0x00, 0x00, 0x03, 0x00, 0x00, 0x00, 0x10, 0x00, 0x00, 0x00, 0x19, 0x00, 0x00, 0x00, 
//    0x73, 0x65, 0x71, 0x75, 0x65, 0x6E, 0x74, 0x69, 0x61, 0x6C, 0x2F, 0x64, 0x65, 0x6E, 0x73, 0x65, 
//    0x5F, 0x31, 0x2F, 0x4D, 0x61, 0x74, 0x4D, 0x75, 0x6C, 0x00, 0x00, 0x00, 0x28, 0xFD, 0xFF, 0xFF, 
//    0x3E, 0xFE, 0xFF, 0xFF, 0x04, 0x00, 0x00, 0x00, 0x00, 0x01, 0x00, 0x00, 0xA1, 0x02, 0x8E, 0x3D, 
//    0x40, 0xD3, 0xAB, 0x3E, 0xEC, 0x3F, 0x8A, 0xBE, 0x0F, 0x51, 0x79, 0xBE, 0xD7, 0x84, 0x89, 0x3D, 
//    0x5E, 0x94, 0x1B, 0x3E, 0x95, 0xE3, 0xE7, 0x3C, 0xF9, 0x56, 0x24, 0xBE, 0x84, 0xD1, 0x24, 0xBF, 
//    0xE6, 0xCB, 0xE6, 0x3D, 0xF5, 0xC6, 0xE6, 0x3E, 0x63, 0xB4, 0x13, 0x3F, 0x7A, 0x8F, 0x90, 0x3E, 
//    0x00, 0xD4, 0xE5, 0xBD, 0xD7, 0x30, 0x00, 0x3F, 0xA9, 0xDD, 0x84, 0x3D, 0xFF, 0xAE, 0x02, 0xBF, 
//    0xC1, 0x0C, 0x74, 0xBD, 0x9C, 0x5A, 0xB8, 0xBE, 0xA7, 0xC3, 0x1F, 0x3F, 0xAE, 0x7F, 0xF0, 0x3D, 
//    0x80, 0xBB, 0x03, 0xBF, 0xAB, 0x76, 0x3D, 0x3F, 0xA4, 0x75, 0xA3, 0x3D, 0x07, 0x68, 0x07, 0x3F, 
//    0x22, 0xB7, 0xAA, 0xBB, 0xAD, 0x51, 0x32, 0xBE, 0xB7, 0x84, 0x1A, 0xBF, 0x50, 0xAD, 0x45, 0xBF, 
//    0xF9, 0xA2, 0xCF, 0xBD, 0x9C, 0x99, 0x9D, 0x3F, 0x4A, 0x2E, 0x3A, 0x3F, 0xF9, 0x0C, 0xA6, 0x3D, 
//    0xEF, 0x2E, 0x48, 0x3F, 0xB8, 0xAA, 0x70, 0xBE, 0xE9, 0x3D, 0x35, 0xBF, 0x4C, 0x93, 0x20, 0x3F, 
//    0x57, 0xC5, 0x3D, 0x3F, 0x0F, 0x33, 0x07, 0xBF, 0xBF, 0xA0, 0x5A, 0xBF, 0x05, 0x2D, 0xEC, 0xBE, 
//    0x13, 0xF9, 0x29, 0x3B, 0x6D, 0x1B, 0xA2, 0x3D, 0x67, 0x0E, 0xE4, 0x3E, 0x19, 0x16, 0x0F, 0x3F, 
//    0x7E, 0x6B, 0x08, 0xBF, 0x68, 0x50, 0x16, 0xBE, 0xB2, 0xCD, 0xFD, 0xBD, 0xE5, 0x12, 0x80, 0x3E, 
//    0x51, 0xAA, 0x05, 0x3F, 0x33, 0x74, 0xB2, 0xBE, 0xF5, 0x7C, 0x34, 0xBF, 0x01, 0xF6, 0xFA, 0xBE, 
//    0x96, 0xF2, 0xE6, 0x3E, 0xA8, 0xCD, 0xF0, 0x3D, 0x8B, 0xFA, 0xDE, 0xBE, 0x75, 0xEE, 0x03, 0xBE, 
//    0x7A, 0x2B, 0x23, 0x3F, 0xC8, 0x11, 0x32, 0xBF, 0x43, 0xF5, 0x4A, 0xBF, 0xE2, 0xF4, 0xAD, 0x3D, 
//    0x43, 0xB1, 0x45, 0x3F, 0x4A, 0x87, 0x5D, 0xBF, 0x2D, 0x03, 0xE5, 0xBE, 0xF6, 0xFE, 0xFF, 0xFF, 
//    0x10, 0x00, 0x00, 0x00, 0x04, 0x00, 0x00, 0x00, 0x14, 0x00, 0x00, 0x00, 0x2C, 0x00, 0x00, 0x00, 
//    0x02, 0x00, 0x00, 0x00, 0x10, 0x00, 0x00, 0x00, 0x04, 0x00, 0x00, 0x00, 0x17, 0x00, 0x00, 0x00, 
//    0x73, 0x65, 0x71, 0x75, 0x65, 0x6E, 0x74, 0x69, 0x61, 0x6C, 0x2F, 0x64, 0x65, 0x6E, 0x73, 0x65, 
//    0x2F, 0x4D, 0x61, 0x74, 0x4D, 0x75, 0x6C, 0x00, 0x74, 0xFE, 0xFF, 0xFF, 0x8A, 0xFF, 0xFF, 0xFF, 
//    0x04, 0x00, 0x00, 0x00, 0x0C, 0x00, 0x00, 0x00, 0x4F, 0x85, 0x98, 0x3D, 0x2C, 0xA1, 0x43, 0x3E, 
//    0xE5, 0xF1, 0x87, 0xBE, 0x4E, 0xFF, 0xFF, 0xFF, 0x10, 0x00, 0x00, 0x00, 0x03, 0x00, 0x00, 0x00, 
//    0x10, 0x00, 0x00, 0x00, 0x48, 0x00, 0x00, 0x00, 0x01, 0x00, 0x00, 0x00, 0x03, 0x00, 0x00, 0x00, 
//    0x32, 0x00, 0x00, 0x00, 0x73, 0x65, 0x71, 0x75, 0x65, 0x6E, 0x74, 0x69, 0x61, 0x6C, 0x2F, 0x64, 
//    0x65, 0x6E, 0x73, 0x65, 0x5F, 0x31, 0x2F, 0x42, 0x69, 0x61, 0x73, 0x41, 0x64, 0x64, 0x2F, 0x52, 
//    0x65, 0x61, 0x64, 0x56, 0x61, 0x72, 0x69, 0x61, 0x62, 0x6C, 0x65, 0x4F, 0x70, 0x2F, 0x72, 0x65, 
//    0x73, 0x6F, 0x75, 0x72, 0x63, 0x65, 0x00, 0x00, 0x04, 0x00, 0x06, 0x00, 0x04, 0x00, 0x00, 0x00, 
//    0x00, 0x00, 0x06, 0x00, 0x08, 0x00, 0x04, 0x00, 0x06, 0x00, 0x00, 0x00, 0x04, 0x00, 0x00, 0x00, 
//    0x40, 0x00, 0x00, 0x00, 0xC3, 0x26, 0x1B, 0xBD, 0x93, 0xE2, 0x7A, 0x3D, 0x7A, 0x25, 0xF7, 0xBD, 
//    0x7B, 0xCA, 0x64, 0x3D, 0x46, 0x0C, 0xB9, 0xBD, 0x24, 0x7E, 0x0C, 0xBE, 0xA1, 0x30, 0xA2, 0x3D, 
//    0x92, 0x76, 0x87, 0xBE, 0x44, 0xE6, 0xC6, 0x3D, 0x5C, 0xC3, 0x06, 0x3E, 0x55, 0xCA, 0x93, 0xBD, 
//    0x66, 0x61, 0x86, 0x3D, 0xEB, 0x62, 0x58, 0x3E, 0x67, 0x10, 0xC3, 0xBA, 0x97, 0x0B, 0x40, 0x3E, 
//    0x0E, 0xD7, 0x85, 0x3E, 0x00, 0x00, 0x0E, 0x00, 0x14, 0x00, 0x04, 0x00, 0x00, 0x00, 0x08, 0x00, 
//    0x0C, 0x00, 0x10, 0x00, 0x0E, 0x00, 0x00, 0x00, 0x10, 0x00, 0x00, 0x00, 0x02, 0x00, 0x00, 0x00, 
//    0x10, 0x00, 0x00, 0x00, 0x44, 0x00, 0x00, 0x00, 0x01, 0x00, 0x00, 0x00, 0x10, 0x00, 0x00, 0x00, 
//    0x30, 0x00, 0x00, 0x00, 0x73, 0x65, 0x71, 0x75, 0x65, 0x6E, 0x74, 0x69, 0x61, 0x6C, 0x2F, 0x64, 
//    0x65, 0x6E, 0x73, 0x65, 0x2F, 0x42, 0x69, 0x61, 0x73, 0x41, 0x64, 0x64, 0x2F, 0x52, 0x65, 0x61, 
//    0x64, 0x56, 0x61, 0x72, 0x69, 0x61, 0x62, 0x6C, 0x65, 0x4F, 0x70, 0x2F, 0x72, 0x65, 0x73, 0x6F, 
//    0x75, 0x72, 0x63, 0x65, 0x00, 0x00, 0x00, 0x00, 0xA4, 0xFF, 0xFF, 0xFF, 0x14, 0x00, 0x18, 0x00, 
//    0x04, 0x00, 0x00, 0x00, 0x08, 0x00, 0x0C, 0x00, 0x10, 0x00, 0x00, 0x00, 0x00, 0x00, 0x14, 0x00, 
//    0x14, 0x00, 0x00, 0x00, 0x14, 0x00, 0x00, 0x00, 0x01, 0x00, 0x00, 0x00, 0x18, 0x00, 0x00, 0x00, 
//    0x30, 0x00, 0x00, 0x00, 0x20, 0x00, 0x00, 0x00, 0x02, 0x00, 0x00, 0x00, 0x01, 0x00, 0x00, 0x00, 
//    0x04, 0x00, 0x00, 0x00, 0x0B, 0x00, 0x00, 0x00, 0x64, 0x65, 0x6E, 0x73, 0x65, 0x5F, 0x69, 0x6E, 
//    0x70, 0x75, 0x74, 0x00, 0x02, 0x00, 0x00, 0x00, 0xFF, 0xFF, 0xFF, 0xFF, 0x04, 0x00, 0x00, 0x00, 
//    0xFC, 0xFF, 0xFF, 0xFF, 0x04, 0x00, 0x04, 0x00, 0x04, 0x00, 0x00, 0x00, 
    
        0x1C, 0x00, 0x00, 0x00, 0x54, 0x46, 0x4C, 0x33, 0x00, 0x00, 0x12, 0x00, 0x1C, 0x00, 0x04, 0x00, 
    0x08, 0x00, 0x0C, 0x00, 0x10, 0x00, 0x14, 0x00, 0x00, 0x00, 0x18, 0x00, 0x12, 0x00, 0x00, 0x00, 
    0x03, 0x00, 0x00, 0x00, 0x8C, 0x06, 0x00, 0x00, 0x10, 0x00, 0x00, 0x00, 0x1C, 0x00, 0x00, 0x00, 
    0x2C, 0x00, 0x00, 0x00, 0x0C, 0x00, 0x00, 0x00, 0x01, 0x00, 0x00, 0x00, 0xC4, 0x00, 0x00, 0x00, 
    0x01, 0x00, 0x00, 0x00, 0x8C, 0x00, 0x00, 0x00, 0x0F, 0x00, 0x00, 0x00, 0x54, 0x4F, 0x43, 0x4F, 
    0x20, 0x43, 0x6F, 0x6E, 0x76, 0x65, 0x72, 0x74, 0x65, 0x64, 0x2E, 0x00, 0x0A, 0x00, 0x00, 0x00, 
    0x60, 0x00, 0x00, 0x00, 0x54, 0x00, 0x00, 0x00, 0x48, 0x00, 0x00, 0x00, 0x3C, 0x00, 0x00, 0x00, 
    0x30, 0x00, 0x00, 0x00, 0x28, 0x00, 0x00, 0x00, 0x20, 0x00, 0x00, 0x00, 0x18, 0x00, 0x00, 0x00, 
    0x10, 0x00, 0x00, 0x00, 0x04, 0x00, 0x00, 0x00, 0x6E, 0xFA, 0xFF, 0xFF, 0x38, 0x00, 0x00, 0x00, 
    0xE8, 0xF9, 0xFF, 0xFF, 0xEC, 0xF9, 0xFF, 0xFF, 0xF0, 0xF9, 0xFF, 0xFF, 0xF4, 0xF9, 0xFF, 0xFF, 
    0x86, 0xFA, 0xFF, 0xFF, 0xF8, 0x01, 0x00, 0x00, 0x8E, 0xFA, 0xFF, 0xFF, 0x90, 0x02, 0x00, 0x00, 
    0x96, 0xFA, 0xFF, 0xFF, 0xE8, 0x03, 0x00, 0x00, 0x9E, 0xFA, 0xFF, 0xFF, 0xF8, 0x04, 0x00, 0x00, 
    0x18, 0xFA, 0xFF, 0xFF, 0x05, 0x00, 0x00, 0x00, 0x31, 0x2E, 0x35, 0x2E, 0x30, 0x00, 0x00, 0x00, 
    0x24, 0xFF, 0xFF, 0xFF, 0x08, 0x00, 0x00, 0x00, 0x09, 0x00, 0x00, 0x00, 0x13, 0x00, 0x00, 0x00, 
    0x6D, 0x69, 0x6E, 0x5F, 0x72, 0x75, 0x6E, 0x74, 0x69, 0x6D, 0x65, 0x5F, 0x76, 0x65, 0x72, 0x73, 
    0x69, 0x6F, 0x6E, 0x00, 0x0C, 0x00, 0x14, 0x00, 0x04, 0x00, 0x08, 0x00, 0x0C, 0x00, 0x10, 0x00, 
    0x0C, 0x00, 0x00, 0x00, 0x20, 0x00, 0x00, 0x00, 0x14, 0x00, 0x00, 0x00, 0x08, 0x00, 0x00, 0x00, 
    0xB4, 0x04, 0x00, 0x00, 0x01, 0x00, 0x00, 0x00, 0x00, 0x00, 0x00, 0x00, 0x01, 0x00, 0x00, 0x00, 
    0x01, 0x00, 0x00, 0x00, 0x08, 0x00, 0x00, 0x00, 0x20, 0x00, 0x00, 0x00, 0x50, 0x00, 0x00, 0x00, 
    0xA0, 0x00, 0x00, 0x00, 0xAC, 0x01, 0x00, 0x00, 0x20, 0x01, 0x00, 0x00, 0xD8, 0x00, 0x00, 0x00, 
    0x00, 0x03, 0x00, 0x00, 0x2C, 0x04, 0x00, 0x00, 0xE6, 0xFB, 0xFF, 0xFF, 0x10, 0x00, 0x00, 0x00, 
    0x08, 0x00, 0x00, 0x00, 0x14, 0x00, 0x00, 0x00, 0x20, 0x00, 0x00, 0x00, 0x02, 0x00, 0x00, 0x00, 
    0x01, 0x00, 0x00, 0x00, 0x03, 0x00, 0x00, 0x00, 0x08, 0x00, 0x00, 0x00, 0x49, 0x64, 0x65, 0x6E, 
    0x74, 0x69, 0x74, 0x79, 0x00, 0x00, 0x00, 0x00, 0xD0, 0xFA, 0xFF, 0xFF, 0x1A, 0xFC, 0xFF, 0xFF, 
    0x10, 0x00, 0x00, 0x00, 0x07, 0x00, 0x00, 0x00, 0x14, 0x00, 0x00, 0x00, 0x28, 0x00, 0x00, 0x00, 
    0x02, 0x00, 0x00, 0x00, 0x01, 0x00, 0x00, 0x00, 0x04, 0x00, 0x00, 0x00, 0x0B, 0x00, 0x00, 0x00, 
    0x64, 0x65, 0x6E, 0x73, 0x65, 0x5F, 0x69, 0x6E, 0x70, 0x75, 0x74, 0x00, 0x08, 0x00, 0x0C, 0x00, 
    0x04, 0x00, 0x08, 0x00, 0x08, 0x00, 0x00, 0x00, 0x10, 0x00, 0x00, 0x00, 0x04, 0x00, 0x00, 0x00, 
    0x01, 0x00, 0x00, 0x00, 0x00, 0x00, 0x7F, 0x43, 0x01, 0x00, 0x00, 0x00, 0x00, 0x00, 0x00, 0x00, 
    0x6E, 0xFC, 0xFF, 0xFF, 0x10, 0x00, 0x00, 0x00, 0x06, 0x00, 0x00, 0x00, 0x14, 0x00, 0x00, 0x00, 
    0x30, 0x00, 0x00, 0x00, 0x02, 0x00, 0x00, 0x00, 0x01, 0x00, 0x00, 0x00, 0x10, 0x00, 0x00, 0x00, 
    0x18, 0x00, 0x00, 0x00, 0x73, 0x65, 0x71, 0x75, 0x65, 0x6E, 0x74, 0x69, 0x61, 0x6C, 0x2F, 0x64, 
    0x65, 0x6E, 0x73, 0x65, 0x2F, 0x42, 0x69, 0x61, 0x73, 0x41, 0x64, 0x64, 0x00, 0x00, 0x00, 0x00, 
    0x68, 0xFB, 0xFF, 0xFF, 0xB2, 0xFC, 0xFF, 0xFF, 0x10, 0x00, 0x00, 0x00, 0x05, 0x00, 0x00, 0x00, 
    0x14, 0x00, 0x00, 0x00, 0x30, 0x00, 0x00, 0x00, 0x02, 0x00, 0x00, 0x00, 0x01, 0x00, 0x00, 0x00, 
    0x03, 0x00, 0x00, 0x00, 0x1A, 0x00, 0x00, 0x00, 0x73, 0x65, 0x71, 0x75, 0x65, 0x6E, 0x74, 0x69, 
    0x61, 0x6C, 0x2F, 0x64, 0x65, 0x6E, 0x73, 0x65, 0x5F, 0x31, 0x2F, 0x42, 0x69, 0x61, 0x73, 0x41, 
    0x64, 0x64, 0x00, 0x00, 0xAC, 0xFB, 0xFF, 0xFF, 0xF6, 0xFC, 0xFF, 0xFF, 0x10, 0x00, 0x00, 0x00, 
    0x04, 0x00, 0x00, 0x00, 0x10, 0x00, 0x00, 0x00, 0x30, 0x00, 0x00, 0x00, 0x01, 0x00, 0x00, 0x00, 
    0x10, 0x00, 0x00, 0x00, 0x1C, 0x00, 0x00, 0x00, 0x73, 0x65, 0x71, 0x75, 0x65, 0x6E, 0x74, 0x69, 
    0x61, 0x6C, 0x2F, 0x64, 0x65, 0x6E, 0x73, 0x65, 0x2F, 0x4D, 0x61, 0x74, 0x4D, 0x75, 0x6C, 0x5F, 
    0x62, 0x69, 0x61, 0x73, 0x00, 0x00, 0x00, 0x00, 0xF0, 0xFB, 0xFF, 0xFF, 0x40, 0x00, 0x00, 0x00, 
    0xE8, 0x03, 0x16, 0x3E, 0xD0, 0x1E, 0xC9, 0x3B, 0x8B, 0x7F, 0x38, 0xBE, 0xD6, 0x58, 0x0E, 0x3E, 
    0xBB, 0x7D, 0xD6, 0xBD, 0xF7, 0x9D, 0xF0, 0xBD, 0xBB, 0x92, 0x95, 0xBD, 0xE6, 0xBD, 0x74, 0xBE, 
    0xBC, 0x69, 0x4F, 0xBE, 0x3D, 0xFD, 0x1B, 0x3D, 0x8A, 0x87, 0x01, 0xBE, 0xBA, 0xCF, 0x07, 0xBE, 
    0xD2, 0x7D, 0x1A, 0x3E, 0x12, 0xFA, 0x86, 0xBD, 0x74, 0xC5, 0x31, 0xBD, 0x0B, 0x6E, 0x51, 0x3E, 
    0x7E, 0xFD, 0xFF, 0xFF, 0x10, 0x00, 0x00, 0x00, 0x03, 0x00, 0x00, 0x00, 0x14, 0x00, 0x00, 0x00, 
    0x48, 0x00, 0x00, 0x00, 0x02, 0x00, 0x00, 0x00, 0x10, 0x00, 0x00, 0x00, 0x04, 0x00, 0x00, 0x00, 
    0x30, 0x00, 0x00, 0x00, 0x73, 0x65, 0x71, 0x75, 0x65, 0x6E, 0x74, 0x69, 0x61, 0x6C, 0x2F, 0x64, 
    0x65, 0x6E, 0x73, 0x65, 0x2F, 0x4D, 0x61, 0x74, 0x4D, 0x75, 0x6C, 0x2F, 0x52, 0x65, 0x61, 0x64, 
    0x56, 0x61, 0x72, 0x69, 0x61, 0x62, 0x6C, 0x65, 0x4F, 0x70, 0x2F, 0x74, 0x72, 0x61, 0x6E, 0x73, 
    0x70, 0x6F, 0x73, 0x65, 0x00, 0x00, 0x00, 0x00, 0x90, 0xFC, 0xFF, 0xFF, 0x00, 0x01, 0x00, 0x00, 
    0x5D, 0x88, 0x17, 0x3F, 0xFE, 0xD0, 0xEE, 0x3D, 0x3D, 0xD7, 0xCE, 0xBE, 0x1B, 0x18, 0xD8, 0xBE, 
    0xA3, 0xC1, 0x18, 0x3E, 0x8D, 0x95, 0x06, 0xBE, 0xAC, 0xF0, 0xBA, 0x3E, 0x05, 0x91, 0x0F, 0xBC, 
    0x6B, 0xCA, 0xB8, 0xBE, 0x29, 0xC2, 0xAA, 0xBE, 0x5E, 0x4A, 0x36, 0x3F, 0x3A, 0xE9, 0x48, 0x3F, 
    0x9D, 0x45, 0xEF, 0x3E, 0x18, 0x77, 0xAA, 0xBD, 0xEA, 0xF1, 0x34, 0xBF, 0xCD, 0x05, 0x41, 0x3E, 
    0x84, 0x9B, 0xD3, 0x3D, 0x1C, 0x45, 0x47, 0xBF, 0xF5, 0x19, 0x81, 0x3F, 0x81, 0x58, 0x03, 0xBE, 
    0x8C, 0x67, 0x69, 0xBE, 0x2F, 0x46, 0x2A, 0xBE, 0x95, 0xA0, 0x90, 0x3B, 0xB2, 0xAF, 0x16, 0x3F, 
    0x60, 0xDC, 0x0F, 0xBE, 0x0C, 0xFE, 0x18, 0xBD, 0x70, 0xC7, 0xFC, 0x3E, 0xD7, 0x79, 0x01, 0x3F, 
    0x4C, 0x1A, 0xA4, 0xBE, 0x64, 0x7E, 0x65, 0xBF, 0xD2, 0x26, 0x7C, 0x3F, 0x10, 0x1F, 0x65, 0x3F, 
    0x37, 0x4A, 0x82, 0xBE, 0xE2, 0xF3, 0x21, 0xBE, 0x87, 0x5C, 0x9F, 0x3D, 0xD2, 0x69, 0x4E, 0x3F, 
    0x90, 0x1C, 0xC7, 0xBE, 0xFB, 0x52, 0x09, 0x3F, 0x36, 0x5C, 0x7D, 0xBE, 0x5A, 0x75, 0xCA, 0x3E, 
    0x28, 0x47, 0x98, 0x3E, 0x92, 0x5E, 0xA7, 0xBE, 0x09, 0xCD, 0x1F, 0x3F, 0xE5, 0x6C, 0x44, 0xBE, 
    0x0B, 0x87, 0xC5, 0xBE, 0xA5, 0xE7, 0x23, 0xBF, 0x28, 0xB6, 0x38, 0x3D, 0xF4, 0x83, 0x3E, 0x3F, 
    0x72, 0x82, 0xE8, 0x3C, 0xBE, 0x66, 0x34, 0xBE, 0x76, 0xDE, 0x5D, 0x3E, 0x10, 0x1F, 0x5A, 0xBF, 
    0x59, 0x9C, 0x54, 0x3E, 0x81, 0xE8, 0xB1, 0xBE, 0x9F, 0x68, 0xDF, 0x3D, 0x2D, 0xA5, 0x3B, 0xBC, 
    0x23, 0xF9, 0xE0, 0xBE, 0x68, 0xB9, 0x09, 0x3F, 0x26, 0x6A, 0x13, 0xBF, 0xB9, 0x52, 0x0B, 0x3F, 
    0xB6, 0x53, 0x25, 0x3F, 0xAE, 0xBD, 0x4F, 0x3F, 0xE4, 0xD5, 0x84, 0xBF, 0x09, 0x12, 0xBF, 0xBE, 
    0xDE, 0xFE, 0xFF, 0xFF, 0x10, 0x00, 0x00, 0x00, 0x02, 0x00, 0x00, 0x00, 0x14, 0x00, 0x00, 0x00, 
    0x48, 0x00, 0x00, 0x00, 0x02, 0x00, 0x00, 0x00, 0x03, 0x00, 0x00, 0x00, 0x10, 0x00, 0x00, 0x00, 
    0x32, 0x00, 0x00, 0x00, 0x73, 0x65, 0x71, 0x75, 0x65, 0x6E, 0x74, 0x69, 0x61, 0x6C, 0x2F, 0x64, 
    0x65, 0x6E, 0x73, 0x65, 0x5F, 0x31, 0x2F, 0x4D, 0x61, 0x74, 0x4D, 0x75, 0x6C, 0x2F, 0x52, 0x65, 
    0x61, 0x64, 0x56, 0x61, 0x72, 0x69, 0x61, 0x62, 0x6C, 0x65, 0x4F, 0x70, 0x2F, 0x74, 0x72, 0x61, 
    0x6E, 0x73, 0x70, 0x6F, 0x73, 0x65, 0x00, 0x00, 0xF0, 0xFD, 0xFF, 0xFF, 0xC0, 0x00, 0x00, 0x00, 
    0x74, 0xB6, 0x23, 0x3F, 0x79, 0x6A, 0x2B, 0xBF, 0xF2, 0xCC, 0xE5, 0xBE, 0xA0, 0xAB, 0x28, 0x3D, 
    0x50, 0x4A, 0x11, 0xBF, 0x08, 0x70, 0x01, 0xBF, 0xEB, 0x21, 0xBB, 0xBE, 0xCE, 0x06, 0x09, 0xBF, 
    0x32, 0xFC, 0x82, 0xBE, 0x7C, 0x2F, 0xDD, 0x3D, 0x16, 0x6B, 0x89, 0x3E, 0xC1, 0xEA, 0xFD, 0xBD, 
    0xEB, 0x51, 0x10, 0x3E, 0x4F, 0x23, 0xC5, 0xBE, 0x49, 0x5D, 0x14, 0x3F, 0x88, 0x7C, 0x60, 0x3F, 
    0xEB, 0x00, 0x86, 0x3E, 0x87, 0xC8, 0xAA, 0x3E, 0x3F, 0xD8, 0x02, 0xBF, 0x38, 0x40, 0x9E, 0x3E, 
    0x25, 0x64, 0x0C, 0x3F, 0x04, 0xA1, 0xDE, 0xBE, 0x17, 0x54, 0xE0, 0xBD, 0xE1, 0x19, 0xC4, 0x3D, 
    0xFB, 0xFB, 0x07, 0xBF, 0x0B, 0x64, 0xE4, 0x3D, 0xE9, 0x85, 0x0A, 0x3E, 0xF3, 0xBC, 0x22, 0xBE, 
    0xBB, 0x0B, 0x14, 0x3F, 0xC6, 0x72, 0x9A, 0xBE, 0x57, 0xBF, 0xE8, 0xBE, 0x96, 0xBA, 0x27, 0xBE, 
    0xDC, 0xC9, 0x05, 0xBF, 0x1F, 0x55, 0xC8, 0x3D, 0x0B, 0x2D, 0x27, 0x3F, 0x1B, 0xC0, 0xE4, 0xBE, 
    0xF1, 0xC6, 0x6A, 0x3F, 0x9B, 0x0F, 0x6B, 0x3E, 0xA4, 0xF8, 0xB2, 0x3E, 0xD5, 0xDE, 0xBC, 0x3F, 
    0x82, 0xD4, 0x1F, 0x3F, 0xDC, 0x00, 0x14, 0x3B, 0x07, 0x7F, 0x36, 0x3F, 0x27, 0x3D, 0x42, 0x3F, 
    0xC6, 0x6B, 0x8C, 0xBE, 0xF4, 0xB6, 0xFB, 0xBC, 0x97, 0x79, 0x97, 0x3C, 0x1D, 0x82, 0x9D, 0xBF, 
    0x00, 0x00, 0x0E, 0x00, 0x14, 0x00, 0x04, 0x00, 0x00, 0x00, 0x08, 0x00, 0x0C, 0x00, 0x10, 0x00, 
    0x0E, 0x00, 0x00, 0x00, 0x10, 0x00, 0x00, 0x00, 0x01, 0x00, 0x00, 0x00, 0x10, 0x00, 0x00, 0x00, 
    0x30, 0x00, 0x00, 0x00, 0x01, 0x00, 0x00, 0x00, 0x03, 0x00, 0x00, 0x00, 0x1E, 0x00, 0x00, 0x00, 
    0x73, 0x65, 0x71, 0x75, 0x65, 0x6E, 0x74, 0x69, 0x61, 0x6C, 0x2F, 0x64, 0x65, 0x6E, 0x73, 0x65, 
    0x5F, 0x31, 0x2F, 0x4D, 0x61, 0x74, 0x4D, 0x75, 0x6C, 0x5F, 0x62, 0x69, 0x61, 0x73, 0x00, 0x00, 
    0x08, 0xFF, 0xFF, 0xFF, 0x0C, 0x00, 0x00, 0x00, 0x31, 0x78, 0x79, 0x3D, 0x4A, 0xA4, 0x33, 0x3E, 
    0x6D, 0x02, 0x72, 0xBE, 0x03, 0x00, 0x00, 0x00, 0xAC, 0x00, 0x00, 0x00, 0x5C, 0x00, 0x00, 0x00, 
    0x18, 0x00, 0x00, 0x00, 0x14, 0x00, 0x1C, 0x00, 0x08, 0x00, 0x0C, 0x00, 0x10, 0x00, 0x07, 0x00, 
    0x14, 0x00, 0x00, 0x00, 0x00, 0x00, 0x18, 0x00, 0x14, 0x00, 0x00, 0x00, 0x00, 0x00, 0x00, 0x09, 
    0x01, 0x00, 0x00, 0x00, 0x10, 0x00, 0x00, 0x00, 0x14, 0x00, 0x00, 0x00, 0x24, 0x00, 0x00, 0x00, 
    0x14, 0x00, 0x00, 0x00, 0x01, 0x00, 0x00, 0x00, 0x05, 0x00, 0x00, 0x00, 0x01, 0x00, 0x00, 0x00, 
    0x00, 0x00, 0x00, 0x00, 0x00, 0x00, 0x00, 0x00, 0x00, 0x00, 0x06, 0x00, 0x08, 0x00, 0x04, 0x00, 
    0x06, 0x00, 0x00, 0x00, 0x00, 0x00, 0x80, 0x3F, 0xC8, 0xFF, 0xFF, 0xFF, 0x00, 0x00, 0x00, 0x08, 
    0x10, 0x00, 0x00, 0x00, 0x1C, 0x00, 0x00, 0x00, 0x24, 0x00, 0x00, 0x00, 0x1C, 0x00, 0x00, 0x00, 
    0x03, 0x00, 0x00, 0x00, 0x02, 0x00, 0x00, 0x00, 0x06, 0x00, 0x00, 0x00, 0x07, 0x00, 0x00, 0x00, 
    0x01, 0x00, 0x00, 0x00, 0x05, 0x00, 0x00, 0x00, 0x00, 0x00, 0x00, 0x00, 0xB4, 0xFF, 0xFF, 0xFF, 
    0x14, 0x00, 0x18, 0x00, 0x00, 0x00, 0x08, 0x00, 0x0C, 0x00, 0x07, 0x00, 0x10, 0x00, 0x00, 0x00, 
    0x00, 0x00, 0x14, 0x00, 0x14, 0x00, 0x00, 0x00, 0x00, 0x00, 0x00, 0x08, 0x10, 0x00, 0x00, 0x00, 
    0x1C, 0x00, 0x00, 0x00, 0x28, 0x00, 0x00, 0x00, 0x1C, 0x00, 0x00, 0x00, 0x03, 0x00, 0x00, 0x00, 
    0x01, 0x00, 0x00, 0x00, 0x03, 0x00, 0x00, 0x00, 0x04, 0x00, 0x00, 0x00, 0x01, 0x00, 0x00, 0x00, 
    0x02, 0x00, 0x00, 0x00, 0x00, 0x00, 0x00, 0x00, 0x04, 0x00, 0x04, 0x00, 0x04, 0x00, 0x00, 0x00, 
    0x02, 0x00, 0x00, 0x00, 0x14, 0x00, 0x00, 0x00, 0x04, 0x00, 0x00, 0x00, 0xFA, 0xFF, 0xFF, 0xFF, 
    0x00, 0x19, 0x06, 0x00, 0x06, 0x00, 0x05, 0x00, 0x06, 0x00, 0x00, 0x00, 0x00, 0x09, 0x06, 0x00, 
    0x08, 0x00, 0x07, 0x00, 0x06, 0x00, 0x00, 0x00, 0x00, 0x00, 0x00, 0x09, 
};
//const int g_mata_model_data_len = 1788;
const int g_mata_model_data_len = 1756;
